3E6EFF19
BE5D5800
BED7F024
BEB77836
BCE75B59
3E9088D7
3F1C97EA
3EBED43D
3E2ED30F
BE0FE4BD
BE8889A0
BD5BFB3E
BE83C7F7
BDBAA766
3DF2BF55
BF37A1C2
3EC52C7C
3E9E8124
3E5F151E
BD1C1ECA
3ED73301
BE25A9EB
BEA52E0E
3E310DBF
3D6F956A
3D6FD6A2
3EBEE009
3E3DF8B1
3DBAE7E3
3E00F6F1
3E592AFA
BE2B352B
BD1B4D2E
3F031C22
BDE72431
3D35E90B
3DD9BAA1
3E01A4BE
BE63C18B
BF0F496B
BDA74744
BDF2806B
3F322585
3E8F839D
BC1D7587
3EA1EB20
BD3DACEF
3E9F340D
3F745469
3EA3BEEC
3E406FAC
3C8562AB
BDB97F7E
3E425BFB
3E59C90C
BE5DC7AC
3E8FF152
3D2EF92D
BDF1E6CD
BEFDEE57
BF02FD76
BD39CD9C
3D9D5CE0
3E548E04
BD1352A8
3E8F77D1
BEE69A4E
BE3AE03B
BE8A8C7A
3F4233BE
BD42AC83
3F047A7D
BE10BC38
BE5A53B9
3EBAD320
3CCEFA39
3E157321
BD02CCCE
BE8458CD
3E2069E8
3C82AB41
BD76B427
3D71BB7F
BE002321
3F26C711
BE3645A2
BE9F7AF6
BE5E5647
3E8C011D
3E80B524
BE6A009F
3DAF4EB0
BEBB838C
BEAD8E22
3EAA862F
3EA78162
3C60AD54
3F0BB246
BD0BB6ED
3E2AA002

